/**
  ******************************************************************************
  * @file    machinefailure_data_params.c
  * @author  AST Embedded Analytics Research Platform
  * @date    2025-03-24T10:21:16+0100
  * @brief   AI Tool Automatic Code Generator for Embedded NN computing
  ******************************************************************************
  * Copyright (c) 2025 STMicroelectronics.
  * All rights reserved.
  *
  * This software is licensed under terms that can be found in the LICENSE file
  * in the root directory of this software component.
  * If no LICENSE file comes with this software, it is provided AS-IS.
  ******************************************************************************
  */

#include "machinefailure_data_params.h"


/**  Activations Section  ****************************************************/
ai_handle g_machinefailure_activations_table[1 + 2] = {
  AI_HANDLE_PTR(AI_MAGIC_MARKER),
  AI_HANDLE_PTR(NULL),
  AI_HANDLE_PTR(AI_MAGIC_MARKER),
};




/**  Weights Section  ********************************************************/
AI_ALIGNED(32)
const ai_u64 s_machinefailure_weights_array_u64[1603] = {
  0xbdb6fd67bbcb1399U, 0x3ec261fa3d95da49U, 0x3c1213d53eebff8cU, 0xbcb269f5bc9a83d5U,
  0xbd46875fbd2fb52dU, 0x3f9fddb03e44380eU, 0xbec33f1c3e3f468cU, 0x3e45a0b93ea7c2c3U,
  0x3ed98759bdcf0939U, 0x3e544dfc3f1a62c1U, 0xbdf898943c993bf7U, 0xbc96b6453dff47caU,
  0xbd97435ebf5d06e8U, 0xbdc5f3fb3dfbeacdU, 0x3f07a04d3e94d466U, 0xbed9de83be70f9b5U,
  0x3bad7a11be5b1275U, 0xbdddcced3da28cbaU, 0x3e966bf5be9360cbU, 0xbd43be5bbc74cda1U,
  0xbe4cc56a3f33539bU, 0x3de5c9b43dea2a51U, 0xbf87a29fbce7fcb3U, 0x3d21c11abe98c32bU,
  0xbd68c46fbe0a1ca7U, 0xbd780d61be478c69U, 0xbd59acda3ebefcddU, 0x3da6bbcd3e92bcb6U,
  0xbef2aff83c887193U, 0x3eda84383e8af52bU, 0x3c362b383e9c97eeU, 0xbc4f3f6f3e11c7edU,
  0x3dc07e39bdd68b21U, 0x3f03d88f3f199e1bU, 0x3e7fc428bdd79dceU, 0xbe2217f6bd169181U,
  0x3ee47d303db2509aU, 0xbdc85f333ed62d2fU, 0xbdf36d07be412a79U, 0xbdf1a9ad3e75c680U,
  0xbe14921bbf34f792U, 0xbd8177babc619b51U, 0xbe7cb188bdbb5099U, 0xbcafd2ec3e6c7a3eU,
  0x3f1e4129bdf9bba1U, 0x3d86d57cbe13ab21U, 0xbe556e6e3ed30ebaU, 0xbe1e40adbf1ffae8U,
  0x3e810874bd9dc8c5U, 0x3efc083e3cd76bb2U, 0xbe9a2965be91f8f7U, 0xbd5a15c3bd7ec5deU,
  0xbe86c498bd037439U, 0x3eb1ce96be9dc266U, 0x3e9af9e13e8e8b19U, 0xbec2ac2dbd566da8U,
  0xbca408173d9f3106U, 0x3f1921fc3e59f817U, 0x3eac45473e605dcdU, 0xbcf85454bec401bcU,
  0x3d278e9ebe0e1ba8U, 0x3f2921583e84df30U, 0xbd0b32233f02bd9dU, 0x3f05e4423e8a93d5U,
  0xbec84b0dbe833077U, 0x3c713316be8ce80bU, 0x3c26e796bd2d6901U, 0x3cd24c09bca2a6e4U,
  0x3f02b5eb3ed1e2bfU, 0x3d78dd9c3bf50499U, 0x3eeb1054be7b51ecU, 0xbd3d39e5bf00886dU,
  0x3d8eb53f3e5b2676U, 0x3c017c75be400ffbU, 0xbe17bea6bc45878aU, 0xbeb103a3bed13152U,
  0xbea2092c3ef011f9U, 0x3e50048f3df19991U, 0xbe84cc83be3cc870U, 0xbca9cd18bdbd4a0aU,
  0x3eb0bffcbca0f09fU, 0x3e3120aa3e76c93bU, 0xbd5b5f08bf422e5dU, 0xbe5f63c3bd6df6a8U,
  0x3ea86699bf281718U, 0xbe0ef4a33c061908U, 0xbe960fb1be4d6f23U, 0xbe5892d2bd6083ceU,
  0xbd513ede3d82f41eU, 0x3e9fc98b3ec5a1baU, 0xbe48bd513c74187aU, 0x3e2e3f553f050adfU,
  0x3e1b949b3e275d01U, 0xbd5176213eae13a1U, 0xbd33e3013de52816U, 0x3e5e5977be4a8aaaU,
  0xbe023e6bbe350282U, 0x3f1d5e33be860b94U, 0x3d9f1ccbbe65f470U, 0x3d08b7cebe741bb5U,
  0x3e8bc89e3d68d10cU, 0xbd34fb743e9bb2a1U, 0x3c83f358bce8ac0eU, 0x3e2f6bcbbea89d71U,
  0x3d34e8393f0b34a3U, 0x3cb8d1483d46c532U, 0xbe09294fbdb8342cU, 0x3f0ee20bbe057010U,
  0xbe974f25bc74343eU, 0xbe1ad5cdbdc98365U, 0x3e6a224a3f2592ffU, 0x3e8acd60be6340afU,
  0x3dee3da23ed95d38U, 0x3cc11ca33ee1a823U, 0x3e120fcd3e45ba9bU, 0x3dddacde3d9e6701U,
  0xbd4de405be9a846bU, 0xbee7d996bd68649aU, 0xbf29f465be816484U, 0xbe4c2212bdc77073U,
  0x3f023b6b3e2b565dU, 0x3e223de73ef4e1d4U, 0xbe7e7e7fbe09782eU, 0xbc8d01ba3e610bc4U,
  0xbd18ff9cbf64971bU, 0xbe1e88c63d06f5acU, 0x3eaaded03caf9637U, 0x3d7abf6abf08b6d7U,
  0xbdfd92703db75944U, 0xbe360f82bedbdac9U, 0xbb0def4cbc2b773eU, 0x3dea7f993efc933cU,
  0x3f0009fabe107dc4U, 0x3e7823923f0b6e38U, 0xbd82ed9c3e3fca7dU, 0xbd6d386f3dd728adU,
  0x3e34b044be02fc85U, 0xbe9c59583ef80748U, 0x3e9644d53e44c5eaU, 0xbdd96127bdc0b0acU,
  0xbd3d87bdbd317a50U, 0xbf6d9dae3dca824fU, 0x3cb5fb99bee611e3U, 0x3c4855ebbeb00d93U,
  0xbd73fbb43d7cdc28U, 0xbea36979bf836488U, 0xbd1d59fc3dd313d6U, 0x3e72d692be89422fU,
  0xbeac5669bdadf1a9U, 0xbde1dc2fbe57bfdeU, 0x3d66f30c3f1ae583U, 0xbd4ddbfabded1103U,
  0xbefa8b04be4a5949U, 0xbef60c35beccbf39U, 0xbe1d458d3d980185U, 0xbd698b073cd80bf5U,
  0x3d9ebbb1be80db81U, 0x3eb2e1853f3e79e8U, 0xbf015de9bc844de6U, 0xbe931ac53eacd1c2U,
  0x3e7e949b3c9fea8dU, 0xbe07950abdff1353U, 0xbde6c0dc3e06b1f4U, 0x3efba3c73ebf8f67U,
  0x3e8686223dfcf264U, 0xbcc528913edea484U, 0x3e5fe4383ed72afaU, 0xbe8b73ee3ed8c6ddU,
  0x3ed2f9723eae6ba1U, 0xbe2cede1be9907d3U, 0x3d0e6c5f3cc3b697U, 0xbe2e7bb0bd341e53U,
  0x3e108bf43d5218f4U, 0xbf055a4bbe6992a8U, 0xbf0d90cdbe8d09aaU, 0xbe4ccf91bc31abfbU,
  0xbe07f09d3dc923c4U, 0xbebf1643befa4ca0U, 0x3cec7c14beda5a47U, 0x3e89e899bea28529U,
  0x3dfd97b53e10525eU, 0x3f28b89f3ed081b9U, 0xbe638196be3e08f3U, 0x3e83b2a83e8b2ccdU,
  0x3bcfb1e83ebb7c85U, 0xbf1c7639bcb1b2d8U, 0xbe0c1bed3e5b1416U, 0x3e98f0663e9413bdU,
  0xbe0733a13e8f12c3U, 0x3dc1462cbd22d6fcU, 0x3dc5722dbe7c7511U, 0xbdb9b164bd9a2f1dU,
  0x3e530f433f2afd50U, 0xbeee74303e271502U, 0xbea333ae3d532ce2U, 0x3daf1dcebedb1563U,
  0x3e2420783dcac241U, 0xbe8252adbe6b04b3U, 0x3ea2cf55becdd7adU, 0x3d42d6b1bd8c8930U,
  0x3d4404553d81d01fU, 0x3d4c76c23e1d2776U, 0x3f2dfafebd4a6db3U, 0xbde8a0b6bd88b109U,
  0x3e07ba0d3a6a69beU, 0xbd51d83c3dc66e85U, 0xbf0d7ca03f35f730U, 0x3e4855a63d262e26U,
  0x3dd910023e8e601dU, 0xbdc248d63ea21454U, 0xbd01112ebd537be7U, 0xbe6dfe583dbf548fU,
  0x3f54d140be28123aU, 0x3e012b5fbe561019U, 0xbead004e3f16b565U, 0x3e31c3eb3e7f79c7U,
  0xbe30e21abcf67365U, 0xbe1545b43e9f59c8U, 0x3bff01da3e8aa845U, 0x3ebcb293bdbf97f5U,
  0x3d128b2a3db98794U, 0x3d8016443d03b7a7U, 0xbf3a886fbf03695fU, 0x3e57d6bf3e25554eU,
  0xbb118f58beaf9bb7U, 0xbf01eb7fbea09a46U, 0xbf043719be916981U, 0xbf09e7edbe8714b6U,
  0xbd653440be8ff048U, 0xbf026a7abe850bcaU, 0xbebb6d93befb40f9U, 0xbc6108c5becc3b6bU,
  0xbeea2009be4ebad4U, 0xbea17f00beb99b9fU, 0xbe037d9abe34cfeaU, 0xbf01e73fbed0109fU,
  0xbe88f4dbbe761e40U, 0x3c594c2fbf0b0af4U, 0xbf295631beb50309U, 0xbe99de60bf1d99f0U,
  0xbdb3df9fbf0abf8bU, 0xbf1f263fbe186ccbU, 0xbe0dbcc8be4f706eU, 0xbe755ee6bed058e9U,
  0xbe01ba083d51c0c6U, 0xbe364af63e766ef1U, 0xbd425664bea55927U, 0xbe5c90d6bf1e9273U,
  0x3da0a08bbebc422aU, 0xbcb57876be9dc9eeU, 0xbec2aa01bef4690aU, 0x3dcf2394be1d2fe9U,
  0xbd440bb0bf12d551U, 0xbe909075bd831710U, 0xbe8e6b25bf03a5bdU, 0x3c9814f4bf0a82f0U,
  0x3e294e7340c3cc39U, 0xc09721053f24c868U, 0x3faf29143c948a3fU, 0x3f6e6a07be7a53f8U,
  0x3f8497564066bb38U, 0x3ff02f14bf056c73U, 0x4020d099bf876231U, 0xbffbc1d7bfbe4cfaU,
  0x3e48a7583e730fd0U, 0x40945c0cbf571f0dU, 0x3daae946bdc55af2U, 0xc10d8297c0a9fffcU,
  0xc07c1d2bbedf778cU, 0x3f3b2e5dbf0b0f9dU, 0xbf286ab3bfbc1de2U, 0x3f41daadc18a1377U,
  0xbe86045fc093bed6U, 0xc0247e5e3fbd73b2U, 0xbde36010c0d3fa7bU, 0x3e0759fbc0b817b6U,
  0x3f3b178fbf2945fdU, 0xbe4e07403f062d48U, 0xbdf8bf5a3eb546ffU, 0xbf20463a3f1eb6a8U,
  0xbfc7fe56c160488fU, 0x3f6a50cabfca92d5U, 0xc0082df33e108d55U, 0xbf28f2343f09659eU,
  0x3f3234d6bf15f752U, 0xc0238d513f3a544bU, 0xc01149503eb22680U, 0xbd94dd883f4c6c5cU,
  0xbce6ebac40a4193aU, 0xc0ad563a3d632658U, 0x3ef4c2173fa08ff9U, 0x3f2f00ae3c96b8daU,
  0xbef5a6c540c5c869U, 0x3dc7c78b3fb2d842U, 0x3ec8c70bbe93fe5bU, 0xbf9b3b6840ca1b4aU,
  0x3e2b495b3eef1ae3U, 0x40599cea407b19ffU, 0xbe280a37bd9eff25U, 0xc0d19ac9c04ebef4U,
  0xc04bad1dbfa8f4b2U, 0xbe9ccaebbff7bb05U, 0xbff8352dc049d802U, 0x3e54e69dc1010526U,
  0xbee5e6aac0b15e0fU, 0xc05aa80a3fb97ed8U, 0xbfc9eb76c09743bfU, 0xbeac2c38c0b77620U,
  0x3e0b548dbe963e91U, 0x3eb24b20bead7347U, 0xbe86cb27be81d37eU, 0xbdba9dbe3f56d17fU,
  0xbfa15789c12582d6U, 0x3e96373bbe681b67U, 0xbfd28bb2c040acaaU, 0xbf1f6321bb7bc69aU,
  0x3defa92740cdd262U, 0xc0178d50be82a897U, 0x3eb7c3483e7f4a2fU, 0xbeb656543ed86ce7U,
  0xbe809062c0975849U, 0x40def15abf8d333dU, 0xc083ee83be86313aU, 0xc02ce261bf41ec36U,
  0xbf779735bff336c1U, 0x40c66fe440238d4fU, 0x3fc7699ec0cc4789U, 0x3e2d1dae3dc7d4c7U,
  0xbfa1aea5bf205e8eU, 0xc104a9d13edc08eeU, 0xbe9b38f6bf6a309aU, 0xbf12ac18c1220b76U,
  0xc0c6ae65bf2010f9U, 0xbf21a7a2c08ad97cU, 0x405df378c03b6f47U, 0xbf46875fc14c2637U,
  0x3e949c0bbfb16d1dU, 0x3ffcb4e0c07f864aU, 0xbf6d52aabf90b847U, 0xbf72d912be6b1c7eU,
  0xbef3f5b3bc984cccU, 0xbd440d123ce8685aU, 0x3e0b99903e72f294U, 0xbff512d0bc511475U,
  0x3eb23dd1c13ab269U, 0xbfc4cdf1be5071bdU, 0xbfc633ebc086d3c9U, 0xbd65669e3e1107c2U,
  0x3ef5b6a8c01340eeU, 0xbe80d8d6bd786e31U, 0x3f520430bfdc572bU, 0x3f64d79fbfeb2b4bU,
  0x3e213e32c182e7ffU, 0x3c1bc5b6bf004375U, 0x3f082d17c0952f97U, 0x3f65ac6b3f94b520U,
  0xc010ad6a3f446854U, 0x40a5f561c0705edaU, 0xbe2361713f0eca0eU, 0x3fb81fe9c02081c9U,
  0x3dd1fecb3f08518eU, 0xc181a059c0cc6f8bU, 0xbf554e573f26aa52U, 0x3eba68cbc067567cU,
  0x3fdea34abf9d4e07U, 0xbdba61bf40a9b750U, 0xbfe8d0ea3f4ee87bU, 0x3f38dc74409211e7U,
  0xc031ea8bbecb512cU, 0x400502e83fe50272U, 0x3ebccfbe3f35a04cU, 0xc083dab13fd512d4U,
  0x3e1101d43faa90d4U, 0xbdeed4f23ebffee4U, 0xbf187bc93f4c7b77U, 0x3e523d8b3f0731e8U,
  0xc0143455c010243aU, 0x3f0891d23eee3fa1U, 0x3fbdd0a1bfee8b66U, 0x3d198f673f340192U,
  0x3f489920404108b9U, 0x3f28fdab3ebc7bd6U, 0xbfdb786b3e5126ccU, 0xbf8cd0ca4007cf26U,
  0x3df73520c0937883U, 0xbecf3bef3f856407U, 0xbf1474aec0045e38U, 0xbc99b3743fc4159eU,
  0x3fb37cc9c0433bafU, 0xc11f7786bd9848bbU, 0x4062367f3fb6021cU, 0xbfadbb273e960fdfU,
  0x3ecbae083d966edbU, 0xc0138366c0aadba5U, 0x3d75e2e2bfe02e44U, 0x402dd95dc184af27U,
  0x3f3172da3f53ca28U, 0x3f4b2d06403b2e1fU, 0xbe2711af3ecc52fdU, 0x3f9870aa4161cd14U,
  0xbf7df943bf93d4aeU, 0xc095e516bef4f3f1U, 0x3f8f25103da7b5dcU, 0x3ff51b343f4b393fU,
  0x3ff48a93bf149019U, 0xbe22d7833f99ba1fU, 0xbd263afa3fc25812U, 0x3f2805b93f117ed6U,
  0xbeb66ef24199cca3U, 0x3edcafc43e6cbbceU, 0xbf8cce9fbff3bcc3U, 0x3d9e83343faec280U,
  0x3fc0faf3c018f66eU, 0xc0032bd23fba7790U, 0xc021a564bd89f928U, 0xbd84e8ee401ec154U,
  0xbde25b92bf96f769U, 0xc037fff53f99df30U, 0xc11f72acc03877e1U, 0xbf9f3559c0122fbbU,
  0x3f4bd302bfcd032aU, 0xc14c51804016c66cU, 0xbfd529f3c10aa61aU, 0xbeb3504fbf444341U,
  0xbf0b8ac9bec7b4feU, 0x40814a76c0549966U, 0xbef0c985bfc062d3U, 0x3f4b32e4c0489381U,
  0x40239086bf078b2fU, 0xbc964bc03f03035dU, 0xc1460002bd63675fU, 0x3efc943dc0cdff9eU,
  0x3d96da373fc31541U, 0xc096bd423f135d41U, 0xbe4a681e3fb5f127U, 0x3e615a9140006055U,
  0xbfec966abf199171U, 0x3f8ab119bf937d66U, 0xbda26f3abeca2423U, 0x3f1af436c01aadb3U,
  0xbe839092414e8c4aU, 0xc018a0413e980f7bU, 0xbe13db6640973854U, 0x3d191002be2d2881U,
  0xbdfe1c30c09f2eb0U, 0xbe633382beac39abU, 0x3e681a67bff4a301U, 0x3ec3395fc07e6fb9U,
  0xbe1e1952c0487ffbU, 0x3ed1979f3e2d8627U, 0x3eae4cea400f433eU, 0x3fa6c67d3f0a2d29U,
  0xbebb744f3f9098aaU, 0x405180f1401a6e20U, 0x412a18013f0dcf78U, 0xbf45e42141692c48U,
  0xbf6198623e9691d0U, 0xc081dec340401f67U, 0xbf236000be09e425U, 0xbe5a3670c0a53164U,
  0x3f90711fbe405fbeU, 0xbefb2789c0747ee4U, 0x3fdfc05abf6eaa95U, 0x3fc6a43bbfdd38d7U,
  0x3dc5be3c3e409030U, 0x3f92c65bbfca2c14U, 0xbe0893b7403a6749U, 0x3fea7ea43f6494c0U,
  0xbdb8cd63be29bfd6U, 0x3fc94adc3e34c802U, 0x3e3e34a93dbf34e3U, 0x3f1c505cbf385e6dU,
  0x3ba0276040eec031U, 0xbfb2a844be198916U, 0x3f085909c133d0c1U, 0x3e6e31683ea4ae3fU,
  0x3c10fa7ec0b3818dU, 0xbf541373bdef0be1U, 0x4029a6083ec4048bU, 0xbed1b245bfb5669aU,
  0xbdc77032c05795deU, 0x3f1c603e3ed33899U, 0x3e6ad83f3e675216U, 0x3fec7bb1bef9fb2eU,
  0xbf68851140613654U, 0x40c50ac04001e02eU, 0x4125fbb03fb797b3U, 0xbf7f39344124ffcbU,
  0xbf793c76bdc69ee7U, 0xc106b6333f9cf9acU, 0xbf10f786bead18d3U, 0x3f569b6cc159399fU,
  0x3ebe55debe369761U, 0xbf730836c0a5fc8eU, 0x3f9db1edbe4d8e70U, 0x3f2f9dc3c003e261U,
  0xbec52127beaba7aaU, 0x404c96dcc0244f05U, 0xbf6eb5fa405f09f1U, 0x400850823f44565fU,
  0x3e92a2b63face891U, 0x3ec3c1d63f5acd78U, 0xbe16194bbd8f7470U, 0xbec01843bf1abed2U,
  0x3e156fe740edd7c4U, 0xbf4738f13e222dbfU, 0xbfb3a671c0fb6b9bU, 0xbf0d4f7f3d13b5c2U,
  0x3e4ec393c0b2c004U, 0xbf99148ebe2c1a08U, 0x4053cb19ba88e17aU, 0xbe72ee3abfd3752fU,
  0xbccc3f1f405c74dbU, 0x3e25611abedde92bU, 0xbfe789f33eb34a7bU, 0xc092c823c0c2b2b3U,
  0x406ae163beed90a0U, 0xc095fb7c40527d1fU, 0xc01a1e56bf9efe5bU, 0xbf43d011bee3f4e5U,
  0xbdbfe9edbf46150fU, 0x3f07cef4bebab062U, 0xbf0aedfbbf02bd8cU, 0xbe4c15adc147c0beU,
  0x3e012485c0040c75U, 0xbd9f9f2f3fefa447U, 0xc0492c3d3f39d3a4U, 0xbfe96d23bfdb6652U,
  0xbf2849f53fabb35bU, 0x3f1a0add3eb7f524U, 0xc08d896f3fb4b973U, 0x3e903c7e3f692224U,
  0xc09f5a5abfdd7f01U, 0xbf3082b9be16756aU, 0x3c0f9b27bec28852U, 0xbe76c738bf0472d8U,
  0xc00430c4405c3e4fU, 0xbf1a5741c0b03100U, 0x3fc38a91414f93c5U, 0xbe62a45d3a635b3fU,
  0xbe6fc3fc40fcc6fcU, 0xbf29ec223dbbf9baU, 0xbe0f4b30c01e67e5U, 0x3f92434dc043f975U,
  0x3e09d763c0ce7025U, 0xbd7fccc1bf6a3e38U, 0x3fca5c2dc0b07a43U, 0x3ec8edb03f0c4b22U,
  0xc019be80c020bd1bU, 0x40e5480dbfed94ecU, 0xbeac0727401727d3U, 0x3f9b8d87c0b52911U,
  0x3df18c903df94bc0U, 0xc11a8802c11b1fd4U, 0xbeb955e6be12813dU, 0x3d2ca7d6c1a3e330U,
  0x3fc1110dbf41cb59U, 0xbf0e739d4082fbc4U, 0x401bcfa43da12faaU, 0x3f4a3fd14118c5a1U,
  0xbff9737cbf3c7f38U, 0x40239f603f6d6330U, 0x3f0fc1663fd16480U, 0xc052d6ac3f163b7eU,
  0x3f58729c3f854dafU, 0x3ed53ef1bcb98169U, 0xbd97fea33e4ecb77U, 0xbf88b49cbe4c56f7U,
  0xc00aca6f40b46701U, 0x3f19c6ba3f96b821U, 0x3f4ab7b3c0150bc2U, 0xbeb492df3eb49081U,
  0x3f2f1138c027d812U, 0x3ece0c6c3e2bbd6dU, 0xbfbe64bd3ee7a101U, 0xbfcda6673fee09aaU,
  0x3cddcfe0c10adbe9U, 0xc005bd083e1c43f4U, 0x3f41e7623d6f9089U, 0x3dc4e47ebee0e747U,
  0xc0677ff93d3d6ea6U, 0xc13a0987c089406bU, 0xbfc67ef63ff85590U, 0xbdfb082fc04b8154U,
  0xbeafc4753ec85637U, 0xc0f108243f83efc2U, 0x3f64aca4bedd274dU, 0xbedd8b2bc14bb7deU,
  0x400de2efbf3af0d0U, 0x3d911761bee1810aU, 0xbf7aa7d53e88eb0bU, 0xbee8f4953f7318faU,
  0x3e1e52bd3e2180b6U, 0xbf488ceb3cad44e2U, 0xbf5b89333ffd7fb1U, 0xc074325f3fb14b79U,
  0xbf14882c3f0c4accU, 0xbe8ec681bf1a605bU, 0x3df5c00cbec3ff3fU, 0xbefc9c3f3f4a57f4U,
  0xbf829896c179101bU, 0x3e281dc6bf1f983fU, 0x3e6622943f990a75U, 0x3d82835b3e51849fU,
  0x3e16e330408b6d71U, 0x3c705a4a3dc8d078U, 0xc00841863f371e22U, 0xbf1471753ec255c1U,
  0x3e3c261b3ea028aaU, 0xc01a6c153eb8b4abU, 0x3e6e5210c017c356U, 0xbef088713f587e4bU,
  0x3f0feec3c0003c8bU, 0xc11b1f614006754bU, 0xbe4cabe63e705651U, 0x3fcfeb513fee5d91U,
  0x3eadd2803e4d0ae9U, 0xc0edd304c0925daeU, 0xbf87808fbf2d8d8cU, 0x3f84d31d405e1bc9U,
  0x409a7af4bf33c973U, 0xbede724c405dc659U, 0xc0f55f933ff03298U, 0x3f05ede4414099ffU,
  0xbfbbf9bc3e60ac0bU, 0x3fb81a953f9f26f2U, 0x3eaf73a8bca67f64U, 0x3fe6051e3fba26f3U,
  0xbe8ffad73f1998cfU, 0x3e71383cbf48692dU, 0xbebd4dafbe6657dcU, 0x3ee66fb33f64e57bU,
  0xbfc14ef240a7844aU, 0x3f6828d83fcc11aaU, 0x3f04b70e415129a2U, 0xbe6f2921be7d0215U,
  0x3e251250403daf92U, 0xbe9cfe1abe288b73U, 0x3f8c429fbf269b4dU, 0xbf9136dc3f890b2fU,
  0x3dd92656405720adU, 0x406c7d80c014ae67U, 0x3f8a26c7c063d42dU, 0x3dc24ba43f18ad7aU,
  0x3f9bea8f3f4f06e4U, 0x3fcb4440403873e3U, 0xc02db2dd3fe9cf7fU, 0x4015f885c10552c3U,
  0x3e9b30213dc14db3U, 0xc0a8ce62c05fa80bU, 0xbefe4fd13f3e60fcU, 0xc006040bc19509dbU,
  0x3ed5693fbe06ec14U, 0x3e9ce1504012e8a7U, 0x4058a465bf5760a3U, 0x3f9e19554076e25fU,
  0xbfa89644be8eb431U, 0x408b6cecbe3c0a8dU, 0x3f4e0a6dbeba629bU, 0xc02e297cbfdb92e2U,
  0x3e9f03063fe9b8ecU, 0x3fb758163dc3aa80U, 0xbeee0a3cbe27864aU, 0xbef6ed8c3fb90293U,
  0xbe80ab84c18c7d82U, 0x3e366d803fdb0582U, 0x3f7db6cd4153d3f6U, 0x3f17559b3ece6adbU,
  0x3f394526c08b6477U, 0x3f21b13c3e9b5a65U, 0x3f4e6afb3efd7793U, 0xbfabbe023fd72890U,
  0xbdba5fbfc159d0baU, 0x3ee18320bf1e03eaU, 0xbeded2dfc0afaa51U, 0xbfa560a7bd8586bcU,
  0xc0aefc0fc03a4a0cU, 0x3fcf373bc08e45ceU, 0xc06f3e0d3ed1e71dU, 0x3e8914eec1870874U,
  0xbd2d692bbe9244fcU, 0xc10c37a2c0ef4cc9U, 0x3f40b627bf162452U, 0x3f8d651bc1b254b2U,
  0x3f42731bbf4501fdU, 0x3e8666cabd811827U, 0x3f31d01e3cd51b5cU, 0xbe6671d4c0b6f26cU,
  0x3d9d71f0be42b26eU, 0xbf066abebde44153U, 0xbf2110513e3c8249U, 0xc030bee43da02a85U,
  0x3eeff5d13fc1341eU, 0x3f1f6af7be04f2edU, 0xbd90e708be67e4d4U, 0xbf2455b73d939d8bU,
  0xbeaa0e193ffb2d85U, 0xbf1b94c5bf03b76eU, 0x3f4584b8bfe9d977U, 0x3e3f83313ec9da32U,
  0x3dc6a1e9c0b8c49eU, 0xbe581cf43d1827f0U, 0xc087cf6f3ee3dbd7U, 0x3e08fcca3f656bc9U,
  0xbdaacc31414f4bc5U, 0x3f9797003db2316dU, 0xc0190b373eb3dc42U, 0xbeae6abfc0a5432dU,
  0x40960cdd3f87b5d6U, 0xc06b9f19410ddf40U, 0x3e987ccec0080343U, 0x3f4d58e33f35aaa6U,
  0x3db60bae3effc73dU, 0x4061d4d7bf230402U, 0xc028ec0dbecc3601U, 0xbf85c90dc1268179U,
  0x3fa8c692bf31725eU, 0xbf20c43d4002537cU, 0xc09bfb26bf85afffU, 0x3f9694033fad8470U,
  0x3e6494713f1eae5aU, 0x4012682e3e90bd33U, 0xbe19b7863f8b512aU, 0x3fa1e34d3df97cb9U,
  0xc065cf1dc0445ef5U, 0x3ec6d0cbbf4c4e6eU, 0x3deed2e2bf02aae3U, 0x3f2b6364bfaca1fcU,
  0xbdb43c1d40090e55U, 0xbf9d4a133d677f53U, 0x3fa28aff4087ada7U, 0xbee560e7be5a3314U,
  0xbec360f1401db814U, 0x3fb29031bf31e103U, 0x40496e6dc00dda6cU, 0xbdc76620c08ddc23U,
  0xbf8ca89540b6a263U, 0xc01415ebbfd4c9e3U, 0x3fb00b0d3ffeabf5U, 0x3ecc55e9bfb642e7U,
  0xbfabb02a3f80a0feU, 0xc10fb9213e0a46a2U, 0xbf76aa86400b7b1fU, 0xbface49940195e34U,
  0xbffd15053f61f5d2U, 0x4057f6a540232bb3U, 0x3e066daebe7213aeU, 0xc0555bf7c1a03e1cU,
  0xbf71f9ce3ebce5d7U, 0xbe20bc9dc00877dbU, 0xc166d1c53fa13a55U, 0xbf6a2abf40994ed8U,
  0xba827693c02ad28cU, 0xc0c5d732c016c03eU, 0xbfdabddcbfe61acdU, 0xbeca95253f42cd60U,
  0xbf5f9e943edb98fbU, 0x3ec7f63bbd63dbdeU, 0xbed991103dbe4d75U, 0x3ee75b51c0f0d862U,
  0xbd32b479bf4cc602U, 0xbf3c9a22be2139d2U, 0x3f419a0b3e81af5eU, 0xbde8ab6abe1315d6U,
  0xbec83f38411b3742U, 0xbee21059becf3f1eU, 0x3dfb25133f5d798bU, 0x3fb9df413fa50146U,
  0xbf4f1008411aa18aU, 0xc0c0967ebfc5ff1eU, 0x3f69a1903f25c73aU, 0x40105a8cbf853862U,
  0x3f6f22ce3fc269cbU, 0xc1146d6f403b7e4bU, 0xc02c2e0f3fe80d8eU, 0x3f0f0b733faea9a4U,
  0xc09586da3f3c3602U, 0x4161cb914007aaa9U, 0xbe7c1b413f15207dU, 0xbed6c4bbc13b0f73U,
  0x4030b967be676ba8U, 0x3bfd84753fd32990U, 0xc124e8be3ebfe7deU, 0x3f9534d340dd58f9U,
  0x3e4d918bbf011bd4U, 0xc09f33f9bf588d1aU, 0xbf6c2c8b3f103179U, 0x402bde293fee3e09U,
  0xbefaab27bf59d1b8U, 0xbe85bd5abe663d7dU, 0x3a5f2e48be0574adU, 0x3f2156e1c0f8bd34U,
  0x3ec7dc804048b604U, 0xbf6c0fb9bfcbed0aU, 0x3fdcbd634092e47bU, 0x3de73e773d0b0229U,
  0x3e623788416d5531U, 0x3f29c8c23e3205d4U, 0x4001d4803e9b3590U, 0x3f5b0e803ff9b68dU,
  0x3e7322f5c077f88eU, 0x3da1e1dfbefe3573U, 0xbfd97daa3f3c3464U, 0x3f5b57893f26a7f0U,
  0x3fdf702b3fe249d2U, 0x4072afac3f9e07b7U, 0x40fe72c93fb1655bU, 0xbf7ac0c23fa08855U,
  0xbf9ddc5ebf8dc9b7U, 0xc05025794029cc16U, 0xbfb607023ce488f6U, 0x3f789d6d412feb61U,
  0xbf0f48233f093e24U, 0x3e3fccc4bdf20522U, 0x3ef83197400f400dU, 0xbcd8a440c0825085U,
  0xbfe4a146bf037e16U, 0x4041a770c08e1e07U, 0x3e788a7bbdd0a206U, 0x3fe9e788bf65acfeU,
  0x3f885a653eb3a649U, 0xbf95933a3fa772baU, 0x3e7ac3da3f808d78U, 0xbf669eebc092c744U,
  0xbce26e24c073b0a9U, 0x3fbbca2bbfc9c7d2U, 0xc00f831ec104adb6U, 0xbe42357c3f7a8a50U,
  0x3f76b54fc0c89c87U, 0xc01b74943f8f791cU, 0x40044902c004b6ebU, 0x3ec99aa23e24434cU,
  0x3dae47db4099bb11U, 0xbe24c66d3f6630a7U, 0x3f592931400a2ce3U, 0xbf870dbec0fb8d35U,
  0x3fad4add407272a5U, 0xbf474aac3dd77404U, 0x40105a623f856278U, 0xbf5f6016bf8bdcb9U,
  0x3ecfdf5d3f558350U, 0x409a60bb405793c1U, 0xbe3b70fb3e6d006dU, 0xc0b418e63faa442dU,
  0xc04f478cbe393eb0U, 0x3eaff082c0092518U, 0x40264787c05c494aU, 0xbe9ff90d40e1bf58U,
  0xbdecab0abf871dcaU, 0x402a608e3fa1340bU, 0xbfba612fbfbf3a68U, 0x3f8ecf54c0812683U,
  0xc076ff95c0c61dcdU, 0xbf56cf1b3f4d3b02U, 0x3dc55939be36ac2fU, 0x3f15366040033b86U,
  0xbf06702ec0e55ccaU, 0x3f7214dfbfab78b9U, 0xbf5b9e513fc03456U, 0xbe59c77e3a84449fU,
  0x3e41924540eecc79U, 0xbf7da7cdbc5b7629U, 0x3f7c83bfbc3c8ccbU, 0xbf0fb97f3ee8f896U,
  0x3eb232f240e4d139U, 0xc03aa245bc7dc2ceU, 0xc048f9a03f99abfcU, 0x3fb344893f501007U,
  0x3fe258e640232861U, 0x40cce81640ab2b22U, 0x3f8c23e43f739d87U, 0x3fbf3ede40ac49c8U,
  0xbf86b9303e3c769eU, 0x3fe6dc6740415fc7U, 0xc0331c4e3f36390dU, 0x3d30eb31c115ce2bU,
  0x3fd9954bbbc95b24U, 0xbf3d53303fcb16fbU, 0xc15ddc98bf3bde27U, 0x3f69a939bfeb7633U,
  0xbf0d5567bf47718bU, 0x3fd1a8d13d80a5a8U, 0x3f639def40220511U, 0x3fe0c61f3f69ac5fU,
  0x3cad8446bf9bfeaaU, 0xbf1f2b26bf0415c1U, 0xbe3b8758beb7dc7eU, 0xbf2b79f8c0d05ec2U,
  0xbe7e07d4c066cfa4U, 0xbfb47bd3bf3b4b38U, 0xbda1353a3f8d1cacU, 0xbf851ac73d2b3b77U,
  0xbef19db2c012769dU, 0xbdd2f76bbf1edb94U, 0x40534732c04aed9cU, 0xbf228a53bfe0506dU,
  0xbf87ef06409d7ca2U, 0xc0c212ccc0235e18U, 0x3e5b93533fe1f04cU, 0x3fcd3be9bbd18c3fU,
  0x3f541bf83eecba03U, 0xc12f497ec0121255U, 0xbfdd8a483fe0dabaU, 0xbea8de7ebec075cdU,
  0xc0717b263e1a16d2U, 0x4101bf9e4019909aU, 0x3e2bf7453de2f25fU, 0xbf24f16dc105c07aU,
  0x3e8da95abea87158U, 0x3f73e34c403809b6U, 0xc0ff29203f9272b2U, 0x3e336e6140d771fdU,
  0xbe826468be830d65U, 0xc0bb81efc08d4beaU, 0xbe08775bc00cd739U, 0x3f9b3b543f308373U,
  0x3e924db8bf270e6aU, 0xc027676f3ee5d9fbU, 0xbd9a1daa3f2f191bU, 0x3f09d873c1064aeaU,
  0xbda4f84c3fd729a5U, 0x3db68041c05b755fU, 0x3ff3af974020bc01U, 0xbf3c14973f3d08c2U,
  0x3f8718a241520fdeU, 0x3dfcf91e3f8c4a63U, 0x3fb37b3a3f0c42dbU, 0x3fb6bcc53f22b026U,
  0xbee5793e3f9df15bU, 0x407d8de5bf1dd217U, 0xc0e267c13d15434fU, 0xc00eb8f1c07e3abbU,
  0x3f91a5cfc04fdcecU, 0xc104c3c1c003fdc9U, 0x3f28507fc0fdaa65U, 0xbf240c47c000b039U,
  0xbf7c8f9dbf9cf9e7U, 0xc01886133c7f7f5eU, 0x3e609c2dc06be487U, 0xc0390fdec112c756U,
  0xc067e59abe1db612U, 0x3e856c6abfa322a2U, 0x3f9fe480bf7b23e4U, 0x3e5b9b81c0c825a3U,
  0xbea324603fe6686fU, 0xc0d7b4b2c07e6cc0U, 0xbf285c6b3ef1c14dU, 0xc09174e7bf30e027U,
  0xbfb4a77ebeb613f3U, 0xbd1409fb3ed9f7c5U, 0xbe1397f23f56c9b8U, 0xc0238995bfb60a11U,
  0xbe7a6a02c0148de9U, 0xbed87adebe9422b6U, 0xbf263a7d4100feedU, 0x3e5a51283f70275fU,
  0x3f959798c0b0f06fU, 0xbeffcc3e3f9b4e91U, 0xc04a0815bfa8e2e6U, 0x3f029d37c088b9bdU,
  0xbe4226a03e637032U, 0x3f9076f53e420938U, 0xc0c40da4bfcae62fU, 0xc0667835bfe00dfdU,
  0xbfbd4fb3c08fc579U, 0xc0bc27b3be404d3cU, 0xbfbee959c09d4b41U, 0xbe057539bf974100U,
  0xbf30976abf01d474U, 0xc0e1a87fc055a2e2U, 0x3dd336ddc0534e53U, 0xc02e5b92c106c4aeU,
  0xc037f5cdbe693471U, 0xbdfa7681bf6d0885U, 0x3fccdd86bf989afeU, 0xbe323e973fb526feU,
  0x3c070adb3fa7fe9dU, 0xc0a91364c02b08c4U, 0xbfae27c23fdc4da7U, 0xc05ab819bd97bd3bU,
  0xbf1766513d7eefe7U, 0x3f063567be51304dU, 0x3d81c6f2bd09f427U, 0xbfc9688bbfdae15eU,
  0x3ca5e82140cdccfaU, 0xbfe4a34fbe2f93ebU, 0xbf53939140fb5ccfU, 0x3a83b133bdbf7b74U,
  0xbc3dfc36c08f4e5cU, 0xbeedac703e270478U, 0xbfe80c09bf6614c4U, 0xbdd1781cc039fc08U,
  0xbf04ad6b40897cdcU, 0xc051c4e7c053a8d4U, 0x3f5cae1c3ebe25beU, 0x402624f53f99b8e4U,
  0xbfb0214b3ffab732U, 0x40a74a423fee1bfbU, 0x400728a43fb13bfdU, 0x3f3bd6c440b5ac51U,
  0xc0ba5ed03e112a70U, 0x3fc764db403a3a42U, 0xbea1379b3f0f3f45U, 0x3eb25180c0510651U,
  0x3f767e6f3be14697U, 0xbf391deec0441dbeU, 0xc113c36c3f609ce6U, 0xbe54a105405e6aa3U,
  0xbe5af359bddc8a88U, 0x3f9c7d87c09133f7U, 0xbfcc31163f3db66bU, 0x401380713ec75308U,
  0x3f93737c4002deaeU, 0xbf5c7d933f05fc17U, 0x3cd072a5be83a49eU, 0x3e22825ac1160cceU,
  0xbce8d43dc09b57dbU, 0xbe794bd3bfaee5bdU, 0x3db9ff56c0527553U, 0xbf3d8eb0beb13967U,
  0xbd1884a8414160ebU, 0xbe283f47becc96f1U, 0x4000cf7d3c9c29f7U, 0x3fb3003140127508U,
  0xbe591621c06d3aeaU, 0xc103b3583ea46b3bU, 0x3e420f7dbf709554U, 0xbf260c6f3f4d49a5U,
  0xc005ad7f3c2947c9U, 0xc14c610fbf6047f9U, 0x3dd2afc2405f3f48U, 0x3d23d58340c8cc25U,
  0x3d2407ad3eb2e6d0U, 0xc0d796f43f9eb77bU, 0x3e946345bfb2c008U, 0xbfb9364ac020755bU,
  0xbfdcb9ae3f777316U, 0x3ead9b133f70fc60U, 0xbe1ffc24bdf7e931U, 0xbe6d5078417a56c3U,
  0xbe354042bedc0478U, 0xc10136edbfad04b0U, 0xbf7b42943f68178eU, 0xbf68ba263f94dd49U,
  0x3f79d1773fe6e1cbU, 0x3e2c04733e8d69b1U, 0x3e11b3e5bee60407U, 0xbe1a7798bd931b09U,
  0x3e223b334143ebbfU, 0x3f3d7b5ebe37fcfcU, 0xbf0a9e67417171ecU, 0xbe6cfe58beb14373U,
  0xbe3aff2040c24f1eU, 0x3e05d85b3dca6fbcU, 0x3f6fbbec3faead21U, 0x3d1cb85f400cc57bU,
  0xbdbab5b040af07aeU, 0x3f9761c03e8d4baeU, 0xc006b53c3fc8cd63U, 0xbfc444dfc03977b3U,
  0x4040eab63faa74f9U, 0x40750606bfaf0ceeU, 0x40d2d77cbf341482U, 0xbfd2cdf9c0368dc6U,
  0xbf911e5bbf66667eU, 0x40b1ecfbc09bda9bU, 0xbf8205fbbf5616e3U, 0xbefca776c1a0b284U,
  0xbfea3847bf6e3b2fU, 0x3f996154408b7915U, 0x3e2d4640bf07cf3aU, 0x3f4abf4d40808840U,
  0xbfbd20eb3fd29d7dU, 0xbf8f2791c0638018U, 0x3f06205ac02c5144U, 0xbf608056bf7b3164U,
  0x3f7c5fd3bfeda485U, 0xbf94089c3ff60cf0U, 0x3d903c983fdb4939U, 0xbfd425fa400c38c0U,
  0xc018eb3240688b60U, 0x3f973a86c0212e0aU, 0x3f49bb84410e0548U, 0x3ec0496f40678ad6U,
  0x4073275a40d05010U, 0xbdb35af7401bd34dU, 0xc03d83dfbf76a107U, 0x4029985d4008c9ccU,
  0x3c3a0e50411a19deU, 0xbf82647b3edc0677U, 0xbfdaab1dc036e3f5U, 0x3da20c7ac0b2f2c7U,
  0x407e7bc03f38dadaU, 0xc130fc41409d1139U, 0xc05c5a53bfdb44c7U, 0x3f04901abf45854bU,
  0x3d9694753ecdd9e0U, 0x3fe1b23b3f8856acU, 0xc0837af6be796850U, 0xbff9431dc177d3efU,
  0x3f78fe26bf3c8d68U, 0xbf23788340001f9aU, 0xc0495896bf88be67U, 0x3f80149240b91cbeU,
  0xbde79f913fd14803U, 0x3fb745063f2851f3U, 0x3db7349a3fa35bb7U, 0x3f857f533ef1e814U,
  0xc04ccd3fc070e0caU, 0x3efdd645bf4196f2U, 0xbe00bd63be39ff60U, 0x3e71065dbffdc12fU,
  0xbeaad7f84092da78U, 0xc014b89e3d73a52bU, 0x3fbdd77d412074c4U, 0x3d1b68233db4bd71U,
  0xbdcb2517403a4db6U, 0x3f3fcb9c3e1f37a3U, 0x3ff60867bff9ec32U, 0xbe3b2954c046a301U,
  0x3d1faeaa4131a929U, 0x3fcadc473f0874e5U, 0xbff5e0863f084e12U, 0xbf85ff53c0631098U,
  0x40cf9181400dbf44U, 0xc09c68bc40cc953fU, 0x400ee247c02c9571U, 0x3f53e7d4c1166653U,
  0xbe2681933f21cf53U, 0x408926694041896cU, 0xc01edc74bf7dc1c2U, 0x3f83d28ec19ffe99U,
  0x3ebe07d9bdd03064U, 0xbeea7ff93fec1048U, 0xbf95d7d8bf314392U, 0x3f94ff5b4094ca2dU,
  0x3ebaf2323eeffab5U, 0x3fdb839f3ebe838eU, 0x3d0ea5fa4022b9efU, 0xbe84fab53f2796abU,
  0xc0358b5cbf815defU, 0xbee7f8a7bf2d69ddU, 0x3e2612723e01c228U, 0xbf1a6d0e3f79d214U,
  0x3ce7dfe2beebbce8U, 0xbe8f6e68be945bfaU, 0x3f38e9a43fed3686U, 0xbe08f55cbe20f022U,
  0x3e5bd12e403d017cU, 0x3fab4b06bd89bb48U, 0x401e8ef6c0316528U, 0xbd1f701dc0a1a384U,
  0xbd36e171c11b434cU, 0x411f5d89c011aaecU, 0xc05ea91e3da25b5fU, 0xc022c14bbf994f2eU,
  0xc08061bbc00426cfU, 0x40cdecc9c02cbabbU, 0x3f45ee5ec09ce7b7U, 0xbe8b55c0bfb34302U,
  0xbeb17f9abf3cfa54U, 0xc11c54813ee60904U, 0x3bcf5628bed762e6U, 0x3fe1e64ec1820b8dU,
  0xc026835fbf3233e0U, 0xbf134587c06d01d7U, 0x40bc71edbe3f3893U, 0xbf23a2cec0ae4c25U,
  0xbcdfb4243f1a05a2U, 0x4008676fbf99d663U, 0xbf9ada853e0e8dbdU, 0xbf49700cbf081138U,
  0xbf573e9b3e985a58U, 0x3f3645bc3f41815dU, 0x3d8df048be9e3bbbU, 0xbf8a26ac3e17266fU,
  0x3eb0db9e3f04bf4cU, 0xc00eea2bbec12b3bU, 0xbf518340c1109220U, 0x3f4bb3423ead7000U,
  0x3b3fa5bcc09b132dU, 0xbe3865fd3e65338dU, 0xbef0d4adbf01586dU, 0x3e34416fc07be807U,
  0xbe33bb9d3fdd5cafU, 0xc0624c53bf874dd3U, 0x3d8b5282bf22602fU, 0x40184d453fbe786eU,
  0xbe30b163bff4e958U, 0x3ee890b2400e61bcU, 0xbeb8b6a43f92ca74U, 0xbe80ad20bf44a297U,
  0xc01f0ad83ddf4179U, 0xbfc1ecbdbfd81cfbU, 0xbe3e6f8e3ee06800U, 0xbf750d4dc0ff195cU,
  0x403053efbc081f90U, 0xbf9dcaa6c05f3b92U, 0xc134907c3f5eaa62U, 0x3f04175fbfa26d60U,
  0xbf924902bf525ceeU, 0xbfb7fa5dc0717288U, 0x3df513cebf5a44b8U, 0x3f9bf368bf456451U,
  0x3fdf2f0440258bbcU, 0xbffbeb573eaec2bbU, 0xbf0b2792be201614U, 0xbebac604c134d695U,
  0x3df1d844c0ded115U, 0xbea5f45bc0331409U, 0xbf4835af3f818c8cU, 0xc02aa1933e0cfc6fU,
  0x3e642b263ff1ee1eU, 0xbf59a165beae4280U, 0x3f27770ebe3e1eccU, 0x3f7933d13f8fdfdeU,
  0xbf6e995440470b35U, 0xc0df4f7bc00e2dbaU, 0x3e9d92a0bf0d90eaU, 0x3f746a274011e995U,
  0x401444413f2666caU, 0xc10417f2bf30c2fbU, 0xbf37abbc3d6c01a0U, 0xbe7e6554c07d4c8eU,
  0xc06a23b9bec3adf2U, 0x412f6d473f0153c6U, 0xbe5b5144bf2b31f4U, 0xbf97ff5bc0e5f2fbU,
  0x3f8a48b0bec75f4bU, 0x3f3524d53fa1fd49U, 0xc0f0d7c53f85ba92U, 0x3ef0cc01bf3f619eU,
  0xbf24446c3ee24b36U, 0xc0aa8da4c0d399aaU, 0x3e14c043bf7e7d26U, 0x3c0b4f7f3f42222eU,
  0x401b83aa3ffca372U, 0xc01f9ea93f025c53U, 0xbcd17a543fc4be17U, 0xbe7c48afc06e0c92U,
  0xbf19501cc024b78cU, 0x3daa5ceec0626404U, 0x3fcc48e63f651a1aU, 0xbf07ff9a3f4e0a61U,
  0x3faa01a3411995d1U, 0x3f027d983facb3e0U, 0xbf9b602f3f0b8f8eU, 0x3ff9bb4f3f77dcd1U,
  0xbd67ee543fb7aabbU, 0x40689bba3c48fd5fU, 0x3e08240f3fad5a1aU, 0x3f4b00973f74521dU,
  0x3fd63e244056193bU, 0x409e6ced3ff34734U, 0x416cc4533ec7700fU, 0xc002ceb540f889bfU,
  0xbe3fb517bea3fb7fU, 0x3ba00dd0403f9155U, 0xbe8e91f4bf0ae7e5U, 0x3f41c8c8416c8f74U,
  0xbf16dad63f342dc9U, 0x3f463d93bf5a442fU, 0x405b58653fb4dfcfU, 0x3e58f4b5c0b15b17U,
  0xbf8c15763f5df417U, 0x40033427c089f6fdU, 0x3f6c252e3edb2e21U, 0x4011bcb1bee68ef9U,
  0xbd71b7fcbdaa5a9eU, 0x3e91b3463f3b946bU, 0x3d83e38e3fb248e9U, 0xbc825585be4b5518U,
  0xbf26a13d40bde1b0U, 0x3f7fc59cbea0cc7fU, 0xbeda58fec1658335U, 0x3e949c8c3fdfa8c8U,
  0x3f9f533ac08323b2U, 0xbf5ddf6d3fa812c4U, 0x3f484dea3eced37dU, 0x3f737016bfff544aU,
  0x3fa7190c3fbf4f02U, 0xbfafad2d400ef7b3U, 0x404c168ac02d71b4U, 0xc004d482c0125d28U,
  0xbfda35a7400d6ff0U, 0xbf2102f83f4ad9b5U, 0x3fb9ea83bff745d9U, 0x3f928f743f2b3998U,
  0xbe5e66dabf5578a2U, 0x3f1bc5273ff8d7c5U, 0x405614f23e476f10U, 0xbf1c14194016886cU,
  0xc06ad989bf99db84U, 0xbf253b643fa3c8bbU, 0x3f500fcd3fe3245bU, 0xc029bcdbbf2501fcU,
  0xbe4fda5cbdb6a14cU, 0x3e1af73abe16c2c9U, 0x3eff4f483ee69c6cU, 0xbe9c68babea3c9daU,
  0x3e2747043f1eb981U, 0x3e6153eebd3e5600U, 0xbca74ac43f08a679U, 0xbece3cfbbda1fbf2U,
  0x3d18cd44bcc967ccU, 0xbba2b856be07e7eaU, 0x3f8910c63d85c183U, 0xbf09d4c73d3843f1U,
  0x3f800c5fbb406b16U, 0x3e4326713d971c5fU, 0xbf26db26be0aa7abU, 0x3c902a033d997012U,
  0xbec060743cbc9207U, 0x3f1721873ed583acU, 0x3e674d2d3f1b1043U, 0xbe89c748bee8d0d8U,
  0xbdb8ddbcbdf86ee8U, 0xbe9465f0be560295U, 0x3e5cbb853e0ec5a4U, 0x3e7080acbe83c1deU,
  0x3e0c5cbabe30ed8eU, 0xbe97405ebe019b16U, 0x3f1119a13e3a7555U, 0xbee2d5dd3eb4c21bU,
  0x3e832e68beb3c96cU, 0xbe499f39be1c3202U, 0xbec84e4f3e8f5d7bU, 0x3d415d753e296e3dU,
  0x3ed5dc673e8123a4U, 0xbf03bababf733d53U, 0xbc9fb5a6bee2f322U, 0xbe20f1acbd211c2fU,
  0xbec261ce3e626ebaU, 0xbe1dfbf7bc8d2399U, 0x3dc7be61be1d4f6eU, 0x3e8e46773e171bfaU,
  0xbef71c743f2568aeU, 0x3d715c733f00c31bU, 0xbf1b55f93e7eb1d6U, 0x3da97d85bf46aefcU,
  0xbe47567dbc1dadd0U, 0x3e942ba03ede73a9U, 0x3e262dcbbf28b4feU, 0xbecb60e63ea74981U,
  0xbf0d796dbf14ada2U, 0xbe220cd43f486ca6U, 0x3ea55424bd53ac61U, 0x3e7ce5623e8134c7U,
  0x3ed05eab3f065c8bU, 0x3e5d466bbd0de093U, 0x3c74250b3e5a4711U, 0xbe4948d23e196ffbU,
  0xbd1dae28be2a8866U, 0x3f79b4bdbe77eba9U, 0xbecc4f2fbeee77a6U, 0xbe3a660c3e8a1f3cU,
  0xbdabbb6ebd60567bU, 0x3c3ec27a3e316a38U, 0xbce020383eb3f24dU, 0xbc8782d0bf0b303aU,
  0xbea2fd70bef2994cU, 0xbea4abe33d7e7e58U, 0xbd981e84be2dced7U, 0x3dac1f423e6c587dU,
  0xbf11e0873e9537afU, 0x3e0c9d7cbf2e81ecU, 0xbf439d5dbe01e3bfU, 0xbf4c85e83e86b8f2U,
  0x3e1d28283d455564U, 0x3ecd5ba73c799f90U, 0xbe929587bef879afU, 0x3dd5f3b5bdf8bfc4U,
  0x3adecd83bf38ca54U, 0x3de15ab73e099ff3U, 0x3e7de5db3ce4d9fdU, 0x3db65eadbedc621bU,
  0xbeef4616bf0756d8U, 0x3eaf63043f1a3a0eU, 0x3da5c9f8bec3f31eU, 0x3de7f0ff3e2944eeU,
  0x3e5bfd93bedbcb1eU, 0xbd8dc93ab984d5beU, 0xbcd753ebbd3a82a2U, 0xbd97df3abed0ee1dU,
  0x3da1ee63beff69d9U, 0xbd915db7bf31d6d0U, 0x3eb0bfa5bec0dc3cU, 0x3d6ac2443ed7bebcU,
  0xbddb92ebbed33747U, 0xbf402455bee78b82U, 0x3d3e1d533eb3d463U, 0x3cd7ea67beb73514U,
  0x3f0896b6be3ff61eU, 0x3df047693ccf8e05U, 0xbe051ddabdc83e6aU, 0xbee16850beda33f0U,
  0x3e421963bde247b6U, 0x3ce162ff3f2c32c9U, 0x3f12a57bbc714881U, 0x3f11d468be4e33edU,
  0xbeebd4f53e3795bfU, 0xbea78152be0e81bcU, 0x3dbaa90a3dbb5f73U, 0xbc9939a33f0000eaU,
  0xbdada5b93f1e5028U, 0xbe141edbbe895addU, 0xbd232a10bd10cc30U, 0xbf1d3ca73dcc66beU,
  0xbeb234823f3d6857U, 0xbe8d2344bcf28fbcU, 0xbf7227213dde7082U, 0x3e1248c83b8facb1U,
  0xbed1eceabf74f4bcU, 0xbef140d43ce8b193U, 0xbd04eb73be3f3c95U, 0x3e4c9ff0befcc6fdU,
  0x3ee64e1cbd151877U, 0x3bb534763e558dedU, 0x3e175f543e979ac3U, 0x3e233bb5bf535446U,
  0x3f5e8553bd36a30fU, 0xbebd476dbec524e6U, 0x3eddeff7bc956fd1U, 0x3e58f8ce3f5844f2U,
  0xbefc7d42bf04921eU, 0x3dcec49e3ee4263bU, 0x3e2baa083e5fe74aU, 0xbe843b4cbeb9f6ccU,
  0x3ea4af0dbe08b610U, 0x3d244d49bb6e3f19U, 0x3e12cd703d7416daU, 0xbe5fa42fbea3f67dU,
  0xbe9e7d08bf16baffU, 0xbed51b60bf186e82U, 0x3e2cb062bf0b5479U, 0xbf54da433efb8001U,
  0xbb9416943ddf2ed0U, 0xbeff4fc1bf04b9efU, 0xbf5367c53ddac6efU, 0xbe60ec0bbf245f94U,
  0x3f30147ebe627ce5U, 0xbee30ab2bf80da53U, 0x3decdfa0be9dc1f7U, 0xbe3584173dae20c1U,
  0xbeb5314d3e96bab1U, 0xbe11e557bcd3b9deU, 0x3d43c30ebc66d91aU, 0x3ed019393e81be10U,
  0xbec5cb243ef4a447U, 0x3d8354b53ed9736eU, 0xbf1a71183dc25c9eU, 0x3e3ec8bebf1a437dU,
  0xbc8b78643bb7b832U, 0x3e2751f13e9e95c7U, 0x3e8d6ab1bf63d400U, 0xbe8e9d383de3815cU,
  0x3e5e1de73d9dcb9dU, 0x3d6174e03e1c711aU, 0xbdcbc4593d18684bU, 0xbe62740cbe84c834U,
  0x3e684a91bef4dd33U, 0xbd8fd5f33f0e7efcU, 0x3f123d54bd9ed9a6U, 0x3f36c30ebf24c2a5U,
  0xbea677e63d2777bfU, 0xbef55548bdaccad4U, 0xbd4bd4583d116cf6U, 0x3cbd09d73f00bfedU,
  0xbe1b65b73f0670d7U, 0xbf49ecd6bf224502U, 0xbc9c63273baad1e5U, 0xbe99006bbdce3cb9U,
  0x3e908f323f45ece4U, 0xbd529bdabf486b0fU, 0x3dea69ce3d933978U, 0xbde70d6abd9c8498U,
  0xbef3715a3ea067bbU, 0x3d367024beaed65aU, 0xbe634de33e37566aU, 0xbd0d255e3da2cfd4U,
  0x3de06a743f1b332eU, 0x3cdfe6163f00e20bU, 0x3e71a6be3f2612a1U, 0xbe597344bec85997U,
  0x3f4dfed6be641932U, 0x3e4599833e0aba34U, 0xbe3b99fdbf1af51dU, 0xbca277e43efb679eU,
  0x3dcaaf723e4799e8U, 0xbe8695efbe02cba8U, 0xbf91c4f0bd17990bU, 0x3db3380d3e17d078U,
  0xbed721e6bf5aa615U, 0xbecb80eabd2e759bU, 0x3cf67e78bea51bc1U, 0x3e0653e0beb568b3U,
  0x3e7b2cb4bd7973e0U, 0xbe19001b3e9c1704U, 0xbd32bea93ea0a498U, 0x3e5c2a3abf3d4db0U,
  0x3f7331d2bd529321U, 0xbe87aa9ebea29e2aU, 0x3e96369bbd709ca8U, 0x3eac055a3ee9929fU,
  0x3f1da112bea3eff5U, 0xbf0a33913dc40c9cU, 0xbf694134beb99135U, 0x3e9595413d9b1b6aU,
  0xbe992009bf4c168dU, 0xbf04c4493d0c4a87U, 0xbde0f0ebbf2aafb2U, 0x3cdcf374bead2c9fU,
  0x3d13ef8a3e71881bU, 0x3e07a3763e31647bU, 0xbf5745d23dc31a92U, 0x3ed51d40bf76f865U,
  0xbddcf0e13bac1479U, 0xbdded0dabecb11d0U, 0x3eb5dd413d5b40a5U, 0xbd9259b53d0ae99dU,
  0x3e3365253e32b6eeU, 0xbd9811153ca3f0a5U, 0xbc368b6dbd867f63U, 0xbf424436bef6abd5U,
  0x3ec65ccdbe54232aU, 0x3d4074183f391c41U, 0x3f175de4bdc89fa9U, 0x3f3e0dbdbe5794f2U,
  0xbee3a7553e469e86U, 0xbebae188bdc37c1eU, 0x3e0f0c79bd997f6fU, 0xbd4cee873f282acfU,
  0xbe5b6ab43f2e7909U, 0xbe658c9dbe6db853U, 0xbe10a5fbbd8cd134U, 0xbf2d7b07bc7a5943U,
  0xbec6a58bbeb9fd81U, 0x3db651f03ded9abeU, 0x3f4591193dde9890U, 0xbea6c317be895a1fU,
  0x3e878dd23f034bd3U, 0x3e6c4202bd5e1573U, 0x3db8b9c43f18fd89U, 0xbd9123973ddd1383U,
  0xbf183ce5bd8c1887U, 0x3d94a005be72939fU, 0x3d302e55be9d6b23U, 0xbf2db1713f342b33U,
  0xbd3731033defc141U, 0x3e5a5de13e9b4b4fU, 0xbf0220a23d1f518aU, 0xbe804acdbf0a1cacU,
  0xbe5fe0473d974eefU, 0x3ee4bdfa3e72926eU, 0x3f1b9e7f3de849e9U, 0x3dffb56d3f45c5e6U,
  0x3d5012b53e8c1c3fU, 0xbdc970323f3a572fU, 0x3e5882b13dcbbe5eU, 0x3ea4cbc53f3d7b04U,
  0x3f265def3ef11712U, 0xbf4ae3fabebc06a7U, 0xbf3e508abfacca8cU, 0x3f015925bf747809U,
  0xbf5652c2bf735147U, 0x3f09b4ddbf9e484fU, 0xbf78f4653f01331bU, 0xbece882abfc7c894U,
  0xbf148690bee5b7d9U, 0xbf2f3bf43eb94906U, 0xbf37428dbf62b44aU, 0x3ea228f23efc7389U,
  0x3ec1d812bd8da5dbU, 0x3ea367573eb79c2eU, 0x3e03a7ab3ea5c97eU, 0xbea3ca8e3e0e6e30U,
  0xbe42de3fbf8a868bU, 0x3eea31b7bf321cc7U, 0x3ecfb5de3f063479U, 0x3ecbd928bf988767U,
  0xbecf37c9be97f155U, 0xbf3739fbbf0ac8d5U, 0x3e9b84ca3ebd7838U, 0xbf33221fbfbd0919U,
  0xbf04c3b73eab1581U, 0x3ee2c1613edbc38eU, 0xbf228d853eeff35eU, 0xbf0af7bebf03db02U,
  0x3ed6aa25bf38f909U, 0x3eb35ba7bf71d035U, 0xbf00f65dbf078374U, 0x3f01b3d1bf24a945U,
  0x3e8e35233e847b2eU, 0x3ea17effbefe9b6fU, 0x3e8c5100bf4263b9U, 0xbe839c7a3f065aa2U,
  0xbecbbd7e3f1c983bU, 0xbe7480b33eb77dedU, 0xbf62f211bf4e7260U, 0x3edda1ef3e11cb49U,
  0xbe9cdd6ac003ed77U, 0xbed01cc13f3d21d8U, 0x3f2e6e88U,
};


ai_handle g_machinefailure_weights_table[1 + 2] = {
  AI_HANDLE_PTR(AI_MAGIC_MARKER),
  AI_HANDLE_PTR(s_machinefailure_weights_array_u64),
  AI_HANDLE_PTR(AI_MAGIC_MARKER),
};

